@00 000C5B
@01 000E27
@02 000ED1
@03 000E47
@04 000C93
@05 0009D5
@06 000644
@07 000228
@08 FFFDD6
@09 FFF9A7
@0A FFF5F3
@0B FFF308
@0C FFF124
@0D FFF072
@0E FFF102
@0F FFF2CC
@10 FFF5AE
@11 FFF96C
@12 FFFDBD
@13 000246
@14 0006AA
@15 000A8D
@16 000D9E
@17 000F99
@18 001054
@19 000FBC
@1A 000DDC
@1B 000AD6
@1C 0006E7
@1D 000260
@1E FFFD9D
@1F FFF901
@20 FFF4EC
@21 FFF1B5
@22 FFEFA0
@23 FFEEDC
@24 FFEF7B
@25 FFF174
@26 FFF4A0
@27 FFF8C1
@28 FFFD82
@29 000281
@2A 000758
@2B 000BA1
@2C 000F01
@2D 001130
@2E 0011FE
@2F 001157
@30 000F45
@31 000BF1
@32 00079C
@33 00029E
@34 FFFD5F
@35 FFF84A
@36 FFF3CB
@37 FFF040
@38 FFEDF5
@39 FFED1D
@3A FFEDCC
@3B FFEFF8
@3C FFF377
@3D FFF803
@3E FFFD40
@3F 0002C3
