@00 FFFFE2
@01 00001E
@02 000057
@03 000089
@04 0000B0
@05 0000C9
@06 0000D2
@07 0000CA
@08 0000B1
@09 00008A
@0A 000058
@0B 00001E
@0C FFFFE2
@0D FFFFA8
@0E FFFF75
@0F FFFF4D
@10 FFFF33
@11 FFFF2A
@12 FFFF32
@13 FFFF4B
@14 FFFF73
@15 FFFFA6
@16 FFFFE1
@17 00001F
@18 00005A
@19 00008E
@1A 0000B7
@1B 0000D2
@1C 0000DB
@1D 0000D3
@1E 0000B9
@1F 000091
@20 00005C
@21 000020
@22 FFFFE0
@23 FFFFA3
@24 FFFF6D
@25 FFFF43
@26 FFFF28
@27 FFFF1E
@28 FFFF27
@29 FFFF41
@2A FFFF6B
@2B FFFFA1
@2C FFFFDF
@2D 000021
@2E 000060
@2F 000098
@30 0000C4
@31 0000E0
@32 0000EA
@33 0000E2
@34 0000C6
@35 00009B
@36 000063
@37 000022
@38 FFFFDE
@39 FFFF9C
@3A FFFF62
@3B FFFF34
@3C FFFF17
@3D FFFF0C
@3E FFFF15
@3F FFFF31
