@00 FFF542
@01 FFEF24
@02 FFEA71
@03 FFE787
@04 FFE69C
@05 FFE7C0
@06 FFEAD6
@07 FFEF99
@08 FFF5A5
@09 FFFC78
@0A 000384
@0B 000A37
@0C 001008
@0D 001480
@0E 001747
@0F 001826
@10 001711
@11 001422
@12 000F9A
@13 0009DA
@14 00035C
@15 FFFCA8
@16 FFF648
@17 FFF0C0
@18 FFEC7F
@19 FFE9DB
@1A FFE906
@1B FFEA0D
@1C FFECD8
@1D FFF128
@1E FFF6A0
@1F FFFCCD
@20 00032F
@21 000940
@22 000E84
@23 001290
@24 001514
@25 0015DF
@26 0014E4
@27 00123C
@28 000E22
@29 0008ED
@2A 00030B
@2B FFFCF8
@2C FFF732
@2D FFF22E
@2E FFEE53
@2F FFEBEE
@30 FFEB2D
@31 FFEC1C
@32 FFEEA3
@33 FFF28B
@34 FFF781
@35 FFFD1A
@36 0002E3
@37 000863
@38 000D29
@39 0010D5
@3A 00131D
@3B 0013D5
@3C 0012F1
@3D 001089
@3E 000CD1
@3F 000818
