@00 0002C3
@01 FFFD40
@02 FFF803
@03 FFF377
@04 FFEFF8
@05 FFEDCC
@06 FFED1D
@07 FFEDF5
@08 FFF040
@09 FFF3CB
@0A FFF84A
@0B FFFD5F
@0C 00029E
@0D 00079C
@0E 000BF1
@0F 000F45
@10 001157
@11 0011FE
@12 001130
@13 000F01
@14 000BA1
@15 000758
@16 000281
@17 FFFD82
@18 FFF8C1
@19 FFF4A0
@1A FFF174
@1B FFEF7B
@1C FFEEDC
@1D FFEFA0
@1E FFF1B5
@1F FFF4EC
@20 FFF901
@21 FFFD9D
@22 000260
@23 0006E7
@24 000AD6
@25 000DDC
@26 000FBC
@27 001054
@28 000F99
@29 000D9E
@2A 000A8D
@2B 0006AA
@2C 000246
@2D FFFDBD
@2E FFF96C
@2F FFF5AE
@30 FFF2CC
@31 FFF102
@32 FFF072
@33 FFF124
@34 FFF308
@35 FFF5F3
@36 FFF9A7
@37 FFFDD6
@38 000228
@39 000644
@3A 0009D5
@3B 000C93
@3C 000E47
@3D 000ED1
@3E 000E27
@3F 000C5B
