@00 FFE8DD
@01 FFF13F
@02 FFFAEC
@03 00051B
@04 000EFB
@05 0017BC
@06 001EA6
@07 002322
@08 0024CE
@09 002380
@0A 001F49
@0B 00187B
@0C 000F9C
@0D 000560
@0E FFFA99
@0F FFF025
@10 FFE6DF
@11 FFDF8D
@12 FFDACB
@13 FFD905
@14 FFDA66
@15 FFDEDB
@16 FFE610
@17 FFEF75
@18 FFFA4D
@19 0005BA
@1A 0010CF
@1B 001AA4
@1C 002269
@1D 002776
@1E 00295A
@1F 0027E5
@20 00232B
@21 001B87
@22 00118F
@23 00060C
@24 FFF9EB
@25 FFEE26
@26 FFE3B4
@27 FFDB72
@28 FFD613
@29 FFD40E
@2A FFD599
@2B FFDA9D
@2C FFE2BB
@2D FFED54
@2E FFF991
@2F 000678
@30 0012FF
@31 001E1E
@32 0026EA
@33 002CA4
@34 002ECC
@35 002D29
@36 0027D4
@37 001F30
@38 0013E6
@39 0006DC
@3A FFF91A
@3B FFEBBE
@3C FFDFE0
@3D FFD67C
@3E FFD05D
@3F FFCE0D
