@00 FFFF66
@01 FFFE3D
@02 FFFD35
@03 FFFC64
@04 FFFBDC
@05 FFFBAA
@06 FFFBD1
@07 FFFC50
@08 FFFD1D
@09 FFFE28
@0A FFFF5E
@0B 0000A3
@0C 0001DF
@0D 0002F8
@0E 0003D5
@0F 000465
@10 00049B
@11 000472
@12 0003EB
@13 000311
@14 0001F5
@15 0000AC
@16 FFFF53
@17 FFFE03
@18 FFFCD9
@19 FFFBEE
@1A FFFB55
@1B FFFB1C
@1C FFFB49
@1D FFFBD8
@1E FFFCBF
@1F FFFDED
@20 FFFF49
@21 0000B8
@22 00021C
@23 000357
@24 000451
@25 0004F3
@26 00052F
@27 000500
@28 000469
@29 000373
@2A 000233
@2B 0000C2
@2C FFFF3D
@2D FFFDC4
@2E FFFC75
@2F FFFB6D
@30 FFFAC1
@31 FFFA81
@32 FFFAB3
@33 FFFB54
@34 FFFC58
@35 FFFDAB
@36 FFFF33
@37 0000CF
@38 00025E
@39 0003C0
@3A 0004D8
@3B 00058E
@3C 0005D1
@3D 00059C
@3E 0004F2
@3F 0003DF
