@00 FFFE1A
@01 FFFE03
@02 FFFE14
@03 FFFE4E
@04 FFFEAC
@05 FFFF27
@06 FFFFB5
@07 00004B
@08 0000DD
@09 00015E
@0A 0001C5
@0B 000208
@0C 000221
@0D 00020E
@0E 0001D0
@0F 00016C
@10 0000E8
@11 000050
@12 FFFFB0
@13 FFFF14
@14 FFFE89
@15 FFFE1B
@16 FFFDD4
@17 FFFDB9
@18 FFFDCD
@19 FFFE0F
@1A FFFE7B
@1B FFFF08
@1C FFFFAA
@1D 000056
@1E 0000FD
@1F 000191
@20 000206
@21 000253
@22 000270
@23 00025A
@24 000213
@25 0001A0
@26 000109
@27 00005C
@28 FFFFA4
@29 FFFEF2
@2A FFFE53
@2B FFFDD6
@2C FFFD84
@2D FFFD65
@2E FFFD7C
@2F FFFDC8
@30 FFFE43
@31 FFFEE4
@32 FFFF9E
@33 000062
@34 000121
@35 0001CA
@36 000250
@37 0002A8
@38 0002C8
@39 0002B0
@3A 00025F
@3B 0001DB
@3C 00012F
@3D 000068
@3E FFFF97
@3F FFFECB
