@00 FFFECB
@01 FFFF97
@02 000068
@03 00012F
@04 0001DB
@05 00025F
@06 0002B0
@07 0002C8
@08 0002A8
@09 000250
@0A 0001CA
@0B 000121
@0C 000062
@0D FFFF9E
@0E FFFEE4
@0F FFFE43
@10 FFFDC8
@11 FFFD7C
@12 FFFD65
@13 FFFD84
@14 FFFDD6
@15 FFFE53
@16 FFFEF2
@17 FFFFA4
@18 00005C
@19 000109
@1A 0001A0
@1B 000213
@1C 00025A
@1D 000270
@1E 000253
@1F 000206
@20 000191
@21 0000FD
@22 000056
@23 FFFFAA
@24 FFFF08
@25 FFFE7B
@26 FFFE0F
@27 FFFDCD
@28 FFFDB9
@29 FFFDD4
@2A FFFE1B
@2B FFFE89
@2C FFFF14
@2D FFFFB0
@2E 000050
@2F 0000E8
@30 00016C
@31 0001D0
@32 00020E
@33 000221
@34 000208
@35 0001C5
@36 00015E
@37 0000DD
@38 00004B
@39 FFFFB5
@3A FFFF27
@3B FFFEAC
@3C FFFE4E
@3D FFFE14
@3E FFFE03
@3F FFFE1A
