@00 FF9564
@01 FF74D1
@02 FF5EA1
@03 FF54FD
@04 FF591D
@05 FF6B24
@06 FF8A14
@07 FFB3DA
@08 FFE570
@09 001B0F
@0A 00507A
@0B 00814E
@0C 00A960
@0D 00C50D
@0E 00D190
@0F 00CD43
@10 00B7CC
@11 00922E
@12 005EC9
@13 002135
@14 FFDE05
@15 FF9A77
@16 FF5C0D
@17 FF2826
@18 FF0389
@19 FEF1FF
@1A FEF5FB
@1B FF1055
@1C FF4026
@1D FF82C1
@1E FFD3CE
@1F 002D90
@20 00893C
@21 00DF76
@22 0128D5
@23 015E7A
@24 017A9A
@25 017905
@26 01578F
@27 011662
@28 00B821
@29 0041E4
@2A FFBB0A
@2B FF2CDD
@2C FEA211
@2D FE2621
@2E FDC499
@2F FD8856
@30 FD7AC6
@31 FDA33C
@32 FE0653
@33 FEA58A
@34 FF7EFB
@35 008D50
@36 01C7EF
@37 032352
@38 04919B
@39 060346
@3A 0767FD
@3B 08AF80
@3C 09CA8A
@3D 0AABAF
@3E 0B4820
@3F 0B984C
