@00 000818
@01 000CD1
@02 001089
@03 0012F1
@04 0013D5
@05 00131D
@06 0010D5
@07 000D29
@08 000863
@09 0002E3
@0A FFFD1A
@0B FFF781
@0C FFF28B
@0D FFEEA3
@0E FFEC1C
@0F FFEB2D
@10 FFEBEE
@11 FFEE53
@12 FFF22E
@13 FFF732
@14 FFFCF8
@15 00030B
@16 0008ED
@17 000E22
@18 00123C
@19 0014E4
@1A 0015DF
@1B 001514
@1C 001290
@1D 000E84
@1E 000940
@1F 00032F
@20 FFFCCD
@21 FFF6A0
@22 FFF128
@23 FFECD8
@24 FFEA0D
@25 FFE906
@26 FFE9DB
@27 FFEC7F
@28 FFF0C0
@29 FFF648
@2A FFFCA8
@2B 00035C
@2C 0009DA
@2D 000F9A
@2E 001422
@2F 001711
@30 001826
@31 001747
@32 001480
@33 001008
@34 000A37
@35 000384
@36 FFFC78
@37 FFF5A5
@38 FFEF99
@39 FFEAD6
@3A FFE7C0
@3B FFE69C
@3C FFE787
@3D FFEA71
@3E FFEF24
@3F FFF542
