@00 FFFEB7
@01 FFFEDE
@02 FFFF1D
@03 FFFF6F
@04 FFFFCE
@05 000032
@06 000094
@07 0000EA
@08 00012E
@09 00015B
@0A 00016C
@0B 00015F
@0C 000136
@0D 0000F3
@0E 00009B
@0F 000035
@10 FFFFCA
@11 FFFF62
@12 FFFF06
@13 FFFEBD
@14 FFFE8D
@15 FFFE7B
@16 FFFE89
@17 FFFEB5
@18 FFFEFD
@19 FFFF5B
@1A FFFFC7
@1B 000039
@1C 0000A8
@1D 00010B
@1E 000159
@1F 00018C
@20 00019F
@21 000191
@22 000162
@23 000115
@24 0000B1
@25 00003D
@26 FFFFC3
@27 FFFF4C
@28 FFFEE2
@29 FFFE8F
@2A FFFE58
@2B FFFE44
@2C FFFE53
@2D FFFE85
@2E FFFED8
@2F FFFF43
@30 FFFFBF
@31 000042
@32 0000C1
@33 000132
@34 00018B
@35 0001C6
@36 0001DC
@37 0001CB
@38 000195
@39 00013D
@3A 0000CB
@3B 000046
@3C FFFFBA
@3D FFFF32
@3E FFFEB9
@3F FFFE59
