@00 000278
@01 0000DA
@02 FFFF25
@03 FFFD7F
@04 FFFC08
@05 FFFAE0
@06 FFFA20
@07 FFF9D8
@08 FFFA10
@09 FFFAC5
@0A FFFBE8
@0B FFFD64
@0C FFFF1A
@0D 0000E7
@0E 0002A6
@0F 000433
@10 00056C
@11 000637
@12 000682
@13 000647
@14 000588
@15 000454
@16 0002C2
@17 0000F3
@18 FFFF0C
@19 FFFD33
@1A FFFB90
@1B FFFA45
@1C FFF96F
@1D FFF91F
@1E FFF95E
@1F FFFA28
@20 FFFB6D
@21 FFFD16
@22 FFFEFF
@23 000102
@24 0002F5
@25 0004B0
@26 00060D
@27 0006F0
@28 000744
@29 000701
@2A 00062C
@2B 0004D4
@2C 000314
@2D 00010F
@2E FFFEEF
@2F FFFCE0
@30 FFFB0D
@31 FFF99D
@32 FFF8AE
@33 FFF855
@34 FFF89C
@35 FFF97D
@36 FFFAE8
@37 FFFCC1
@38 FFFEE2
@39 000120
@3A 00034B
@3B 000538
@3C 0006BD
@3D 0007B9
@3E 000816
@3F 0007CC
