@00 0003DF
@01 0004F2
@02 00059C
@03 0005D1
@04 00058E
@05 0004D8
@06 0003C0
@07 00025E
@08 0000CF
@09 FFFF33
@0A FFFDAB
@0B FFFC58
@0C FFFB54
@0D FFFAB3
@0E FFFA81
@0F FFFAC1
@10 FFFB6D
@11 FFFC75
@12 FFFDC4
@13 FFFF3D
@14 0000C2
@15 000233
@16 000373
@17 000469
@18 000500
@19 00052F
@1A 0004F3
@1B 000451
@1C 000357
@1D 00021C
@1E 0000B8
@1F FFFF49
@20 FFFDED
@21 FFFCBF
@22 FFFBD8
@23 FFFB49
@24 FFFB1C
@25 FFFB55
@26 FFFBEE
@27 FFFCD9
@28 FFFE03
@29 FFFF53
@2A 0000AC
@2B 0001F5
@2C 000311
@2D 0003EB
@2E 000472
@2F 00049B
@30 000465
@31 0003D5
@32 0002F8
@33 0001DF
@34 0000A3
@35 FFFF5E
@36 FFFE28
@37 FFFD1D
@38 FFFC50
@39 FFFBD1
@3A FFFBAA
@3B FFFBDC
@3C FFFC64
@3D FFFD35
@3E FFFE3D
@3F FFFF66
