@00 0007CC
@01 000816
@02 0007B9
@03 0006BD
@04 000538
@05 00034B
@06 000120
@07 FFFEE2
@08 FFFCC1
@09 FFFAE8
@0A FFF97D
@0B FFF89C
@0C FFF855
@0D FFF8AE
@0E FFF99D
@0F FFFB0D
@10 FFFCE0
@11 FFFEEF
@12 00010F
@13 000314
@14 0004D4
@15 00062C
@16 000701
@17 000744
@18 0006F0
@19 00060D
@1A 0004B0
@1B 0002F5
@1C 000102
@1D FFFEFF
@1E FFFD16
@1F FFFB6D
@20 FFFA28
@21 FFF95E
@22 FFF91F
@23 FFF96F
@24 FFFA45
@25 FFFB90
@26 FFFD33
@27 FFFF0C
@28 0000F3
@29 0002C2
@2A 000454
@2B 000588
@2C 000647
@2D 000682
@2E 000637
@2F 00056C
@30 000433
@31 0002A6
@32 0000E7
@33 FFFF1A
@34 FFFD64
@35 FFFBE8
@36 FFFAC5
@37 FFFA10
@38 FFF9D8
@39 FFFA20
@3A FFFAE0
@3B FFFC08
@3C FFFD7F
@3D FFFF25
@3E 0000DA
@3F 000278
