@00 000A86
@01 00092F
@02 00071E
@03 00047E
@04 000188
@05 FFFE79
@06 FFFB91
@07 FFF90C
@08 FFF71B
@09 FFF5E7
@0A FFF586
@0B FFF5FF
@0C FFF745
@0D FFF93C
@0E FFFBBA
@0F FFFE8B
@10 000173
@11 000437
@12 00069C
@13 000874
@14 000999
@15 0009F5
@16 000982
@17 00084C
@18 00066E
@19 00040F
@1A 000162
@1B FFFE9F
@1C FFFBFF
@1D FFF9B8
@1E FFF7F8
@1F FFF6E2
@20 FFF68B
@21 FFF6F8
@22 FFF81E
@23 FFF9E5
@24 FFFC25
@25 FFFEAF
@26 00014F
@27 0003CD
@28 0005F7
@29 0007A1
@2A 0008A9
@2B 0008FB
@2C 000894
@2D 00077C
@2E 0005CC
@2F 0003A9
@30 000140
@31 FFFEC2
@32 FFFC64
@33 FFFA56
@34 FFF8C3
@35 FFF7C8
@36 FFF77A
@37 FFF7DC
@38 FFF8E6
@39 FFFA7F
@3A FFFC87
@3B FFFED1
@3C 00012E
@3D 00036D
@3E 00055F
@3F 0006DE
