@00 FFFF31
@01 FFFF15
@02 FFFF0C
@03 FFFF17
@04 FFFF34
@05 FFFF62
@06 FFFF9C
@07 FFFFDE
@08 000022
@09 000063
@0A 00009B
@0B 0000C6
@0C 0000E2
@0D 0000EA
@0E 0000E0
@0F 0000C4
@10 000098
@11 000060
@12 000021
@13 FFFFDF
@14 FFFFA1
@15 FFFF6B
@16 FFFF41
@17 FFFF27
@18 FFFF1E
@19 FFFF28
@1A FFFF43
@1B FFFF6D
@1C FFFFA3
@1D FFFFE0
@1E 000020
@1F 00005C
@20 000091
@21 0000B9
@22 0000D3
@23 0000DB
@24 0000D2
@25 0000B7
@26 00008E
@27 00005A
@28 00001F
@29 FFFFE1
@2A FFFFA6
@2B FFFF73
@2C FFFF4B
@2D FFFF32
@2E FFFF2A
@2F FFFF33
@30 FFFF4D
@31 FFFF75
@32 FFFFA8
@33 FFFFE2
@34 00001E
@35 000058
@36 00008A
@37 0000B1
@38 0000CA
@39 0000D2
@3A 0000C9
@3B 0000B0
@3C 000089
@3D 000057
@3E 00001E
@3F FFFFE2
