@00 FFFC4D
@01 0003B7
@02 000AE5
@03 001140
@04 001643
@05 001983
@06 001AB6
@07 0019BF
@08 0016AE
@09 0011BD
@0A 000B4E
@0B 0003E4
@0C FFFC17
@0D FFF489
@0E FFEDD8
@0F FFE891
@10 FFE526
@11 FFE3E2
@12 FFE4E5
@13 FFE820
@14 FFED54
@15 FFF419
@16 FFFBE7
@17 00041E
@18 000C12
@19 00131F
@1A 0018AE
@1B 001C48
@1C 001D9E
@1D 001C8D
@1E 001927
@1F 0013AD
@20 000C8A
@21 000451
@22 FFFBAA
@23 FFF347
@24 FFEBD9
@25 FFE5FD
@26 FFE230
@27 FFE0C7
@28 FFE1E6
@29 FFE57B
@2A FFEB41
@2B FFF2C7
@2C FFFB73
@2D 000493
@2E 000D6B
@2F 001542
@30 001B72
@31 001F75
@32 0020F2
@33 001FC4
@34 001BFE
@35 0015E6
@36 000DF6
@37 0004CE
@38 FFFB2B
@39 FFF1D5
@3A FFE98D
@3B FFE304
@3C FFDEC7
@3D FFDD33
@3E FFDE71
@3F FFE26D
