@00 0B984C
@01 0B4820
@02 0AABAF
@03 09CA8A
@04 08AF80
@05 0767FD
@06 060346
@07 04919B
@08 032352
@09 01C7EF
@0A 008D50
@0B FF7EFB
@0C FEA58A
@0D FE0653
@0E FDA33C
@0F FD7AC6
@10 FD8856
@11 FDC499
@12 FE2621
@13 FEA211
@14 FF2CDD
@15 FFBB0A
@16 0041E4
@17 00B821
@18 011662
@19 01578F
@1A 017905
@1B 017A9A
@1C 015E7A
@1D 0128D5
@1E 00DF76
@1F 00893C
@20 002D90
@21 FFD3CE
@22 FF82C1
@23 FF4026
@24 FF1055
@25 FEF5FB
@26 FEF1FF
@27 FF0389
@28 FF2826
@29 FF5C0D
@2A FF9A77
@2B FFDE05
@2C 002135
@2D 005EC9
@2E 00922E
@2F 00B7CC
@30 00CD43
@31 00D190
@32 00C50D
@33 00A960
@34 00814E
@35 00507A
@36 001B0F
@37 FFE570
@38 FFB3DA
@39 FF8A14
@3A FF6B24
@3B FF591D
@3C FF54FD
@3D FF5EA1
@3E FF74D1
@3F FF9564
