@00 FFFF5E
@01 FFFF99
@02 FFFFDD
@03 000024
@04 000068
@05 0000A5
@06 0000D5
@07 0000F4
@08 000100
@09 0000F7
@0A 0000D9
@0B 0000AA
@0C 00006C
@0D 000025
@0E FFFFDB
@0F FFFF92
@10 FFFF52
@11 FFFF20
@12 FFFEFF
@13 FFFEF3
@14 FFFEFC
@15 FFFF1B
@16 FFFF4D
@17 FFFF8E
@18 FFFFD9
@19 000027
@1A 000074
@1B 0000B7
@1C 0000ED
@1D 00010F
@1E 00011C
@1F 000112
@20 0000F2
@21 0000BD
@22 000079
@23 00002A
@24 FFFFD6
@25 FFFF85
@26 FFFF3E
@27 FFFF05
@28 FFFEE0
@29 FFFED3
@2A FFFEDD
@2B FFFF00
@2C FFFF37
@2D FFFF80
@2E FFFFD4
@2F 00002C
@30 000082
@31 0000CE
@32 00010A
@33 000132
@34 000140
@35 000135
@36 000110
@37 0000D5
@38 000088
@39 00002F
@3A FFFFD1
@3B FFFF76
@3C FFFF25
@3D FFFEE4
@3E FFFEBB
@3F FFFEAB
