@00 FFBD70
@01 FFE98D
@02 00161B
@03 003F8D
@04 0062B0
@05 007CEA
@06 008C69
@07 00903F
@08 008873
@09 0075F9
@0A 005A92
@0B 0038AD
@0C 001328
@0D FFED19
@0E FFC98C
@0F FFAB44
@10 FF948A
@11 FF86FC
@12 FF8372
@13 FF89F7
@14 FF99C6
@15 FFB162
@16 FFCEB9
@17 FFEF51
@18 00107D
@19 002F92
@1A 004A22
@1B 005E27
@1C 006A2F
@1D 006D70
@1E 0067DA
@1F 005A10
@20 00455A
@21 002B86
@22 000EC1
@23 FFF167
@24 FFD5D4
@25 FFBE35
@26 FFAC57
@27 FFA18C
@28 FF9E8C
@29 FFA36C
@2A FFAFA1
@2B FFC20C
@2C FFD915
@2D FFF2CC
@2E 000D14
@2F 0025D1
@30 003B0E
@31 004B29
@32 0054EF
@33 0057B5
@34 005364
@35 004875
@36 0037E6
@37 002325
@38 000BEF
@39 FFF42C
@3A FFDDC6
@3B FFCA82
@3C FFBBDF
@3D FFB2F5
@3E FFB062
@3F FFB440
