@00 FFB440
@01 FFB062
@02 FFB2F5
@03 FFBBDF
@04 FFCA82
@05 FFDDC6
@06 FFF42C
@07 000BEF
@08 002325
@09 0037E6
@0A 004875
@0B 005364
@0C 0057B5
@0D 0054EF
@0E 004B29
@0F 003B0E
@10 0025D1
@11 000D14
@12 FFF2CC
@13 FFD915
@14 FFC20C
@15 FFAFA1
@16 FFA36C
@17 FF9E8C
@18 FFA18C
@19 FFAC57
@1A FFBE35
@1B FFD5D4
@1C FFF167
@1D 000EC1
@1E 002B86
@1F 00455A
@20 005A10
@21 0067DA
@22 006D70
@23 006A2F
@24 005E27
@25 004A22
@26 002F92
@27 00107D
@28 FFEF51
@29 FFCEB9
@2A FFB162
@2B FF99C6
@2C FF89F7
@2D FF8372
@2E FF86FC
@2F FF948A
@30 FFAB44
@31 FFC98C
@32 FFED19
@33 001328
@34 0038AD
@35 005A92
@36 0075F9
@37 008873
@38 00903F
@39 008C69
@3A 007CEA
@3B 0062B0
@3C 003F8D
@3D 00161B
@3E FFE98D
@3F FFBD70
