@00 0006DE
@01 00055F
@02 00036D
@03 00012E
@04 FFFED1
@05 FFFC87
@06 FFFA7F
@07 FFF8E6
@08 FFF7DC
@09 FFF77A
@0A FFF7C8
@0B FFF8C3
@0C FFFA56
@0D FFFC64
@0E FFFEC2
@0F 000140
@10 0003A9
@11 0005CC
@12 00077C
@13 000894
@14 0008FB
@15 0008A9
@16 0007A1
@17 0005F7
@18 0003CD
@19 00014F
@1A FFFEAF
@1B FFFC25
@1C FFF9E5
@1D FFF81E
@1E FFF6F8
@1F FFF68B
@20 FFF6E2
@21 FFF7F8
@22 FFF9B8
@23 FFFBFF
@24 FFFE9F
@25 000162
@26 00040F
@27 00066E
@28 00084C
@29 000982
@2A 0009F5
@2B 000999
@2C 000874
@2D 00069C
@2E 000437
@2F 000173
@30 FFFE8B
@31 FFFBBA
@32 FFF93C
@33 FFF745
@34 FFF5FF
@35 FFF586
@36 FFF5E7
@37 FFF71B
@38 FFF90C
@39 FFFB91
@3A FFFE79
@3B 000188
@3C 00047E
@3D 00071E
@3E 00092F
@3F 000A86
