@00 FFE26D
@01 FFDE71
@02 FFDD33
@03 FFDEC7
@04 FFE304
@05 FFE98D
@06 FFF1D5
@07 FFFB2B
@08 0004CE
@09 000DF6
@0A 0015E6
@0B 001BFE
@0C 001FC4
@0D 0020F2
@0E 001F75
@0F 001B72
@10 001542
@11 000D6B
@12 000493
@13 FFFB73
@14 FFF2C7
@15 FFEB41
@16 FFE57B
@17 FFE1E6
@18 FFE0C7
@19 FFE230
@1A FFE5FD
@1B FFEBD9
@1C FFF347
@1D FFFBAA
@1E 000451
@1F 000C8A
@20 0013AD
@21 001927
@22 001C8D
@23 001D9E
@24 001C48
@25 0018AE
@26 00131F
@27 000C12
@28 00041E
@29 FFFBE7
@2A FFF419
@2B FFED54
@2C FFE820
@2D FFE4E5
@2E FFE3E2
@2F FFE526
@30 FFE891
@31 FFEDD8
@32 FFF489
@33 FFFC17
@34 0003E4
@35 000B4E
@36 0011BD
@37 0016AE
@38 0019BF
@39 001AB6
@3A 001983
@3B 001643
@3C 001140
@3D 000AE5
@3E 0003B7
@3F FFFC4D
