@00 FFFE59
@01 FFFEB9
@02 FFFF32
@03 FFFFBA
@04 000046
@05 0000CB
@06 00013D
@07 000195
@08 0001CB
@09 0001DC
@0A 0001C6
@0B 00018B
@0C 000132
@0D 0000C1
@0E 000042
@0F FFFFBF
@10 FFFF43
@11 FFFED8
@12 FFFE85
@13 FFFE53
@14 FFFE44
@15 FFFE58
@16 FFFE8F
@17 FFFEE2
@18 FFFF4C
@19 FFFFC3
@1A 00003D
@1B 0000B1
@1C 000115
@1D 000162
@1E 000191
@1F 00019F
@20 00018C
@21 000159
@22 00010B
@23 0000A8
@24 000039
@25 FFFFC7
@26 FFFF5B
@27 FFFEFD
@28 FFFEB5
@29 FFFE89
@2A FFFE7B
@2B FFFE8D
@2C FFFEBD
@2D FFFF06
@2E FFFF62
@2F FFFFCA
@30 000035
@31 00009B
@32 0000F3
@33 000136
@34 00015F
@35 00016C
@36 00015B
@37 00012E
@38 0000EA
@39 000094
@3A 000032
@3B FFFFCE
@3C FFFF6F
@3D FFFF1D
@3E FFFEDE
@3F FFFEB7
