@00 FFBE23
@01 FFCD28
@02 FFE003
@03 FFF522
@04 000AC8
@05 001F37
@06 0030D0
@07 003E35
@08 004664
@09 0048C8
@0A 00454A
@0B 003C47
@0C 002E8F
@0D 001D4F
@0E 0009F7
@0F FFF61D
@10 FFE35B
@11 FFD32E
@12 FFC6DB
@13 FFBF4E
@14 FFBD12
@15 FFC041
@16 FFC884
@17 FFD520
@18 FFE4FF
@19 FFF6D1
@1A 00091E
@1B 001A6D
@1C 00295E
@1D 0034C4
@1E 003BC3
@1F 003DDA
@20 003AEF
@21 003351
@22 0027AC
@23 0018FE
@24 000881
@25 FFF78E
@26 FFE783
@27 FFD9A7
@28 FFCF11
@29 FFC88F
@2A FFC69A
@2B FFC94A
@2C FFD058
@2D FFDB25
@2E FFE8C6
@2F FFF818
@30 0007DB
@31 0016C8
@32 0023AF
@33 002D8C
@34 00339F
@35 003576
@36 0032F9
@37 002C6A
@38 00225B
@39 0015A9
@3A 000760
@3B FFF8AC
@3C FFEABD
@3D FFDEB0
@3E FFD577
@3F FFCFC8
