@00 000993
@01 00060C
@02 000210
@03 FFFDF2
@04 FFFA09
@05 FFF6A3
@06 FFF406
@07 FFF267
@08 FFF1E4
@09 FFF286
@0A FFF43C
@0B FFF6E2
@0C FFFA3E
@0D FFFE09
@0E 0001F5
@0F 0005AF
@10 0008EB
@11 000B67
@12 000CF3
@13 000D6F
@14 000CD5
@15 000B34
@16 0008AE
@17 00057C
@18 0001DF
@19 FFFE23
@1A FFFA97
@1B FFF783
@1C FFF525
@1D FFF3AC
@1E FFF336
@1F FFF3C8
@20 FFF556
@21 FFF7BC
@22 FFFAC8
@23 FFFE38
@24 0001C6
@25 000526
@26 000815
@27 000A55
@28 000BBC
@29 000C2C
@2A 000BA1
@2B 000A26
@2C 0007DD
@2D 0004F7
@2E 0001B2
@2F FFFE50
@30 FFFB1A
@31 FFF850
@32 FFF62B
@33 FFF4D6
@34 FFF46B
@35 FFF4F0
@36 FFF658
@37 FFF885
@38 FFFB46
@39 FFFE63
@3A 00019B
@3B 0004A9
@3C 000750
@3D 00095A
@3E 000A9E
@3F 000B04
