@00 FFCE0D
@01 FFD05D
@02 FFD67C
@03 FFDFE0
@04 FFEBBE
@05 FFF91A
@06 0006DC
@07 0013E6
@08 001F30
@09 0027D4
@0A 002D29
@0B 002ECC
@0C 002CA4
@0D 0026EA
@0E 001E1E
@0F 0012FF
@10 000678
@11 FFF991
@12 FFED54
@13 FFE2BB
@14 FFDA9D
@15 FFD599
@16 FFD40E
@17 FFD613
@18 FFDB72
@19 FFE3B4
@1A FFEE26
@1B FFF9EB
@1C 00060C
@1D 00118F
@1E 001B87
@1F 00232B
@20 0027E5
@21 00295A
@22 002776
@23 002269
@24 001AA4
@25 0010CF
@26 0005BA
@27 FFFA4D
@28 FFEF75
@29 FFE610
@2A FFDEDB
@2B FFDA66
@2C FFD905
@2D FFDACB
@2E FFDF8D
@2F FFE6DF
@30 FFF025
@31 FFFA99
@32 000560
@33 000F9C
@34 00187B
@35 001F49
@36 002380
@37 0024CE
@38 002322
@39 001EA6
@3A 0017BC
@3B 000EFB
@3C 00051B
@3D FFFAEC
@3E FFF13F
@3F FFE8DD
