@00 FFFE17
@01 FFFD88
@02 FFFD2A
@03 FFFD07
@04 FFFD22
@05 FFFD78
@06 FFFE05
@07 FFFEBC
@08 FFFF90
@09 000070
@0A 000149
@0B 00020A
@0C 0002A3
@0D 000306
@0E 00032C
@0F 000310
@10 0002B3
@11 00021D
@12 000159
@13 000077
@14 FFFF88
@15 FFFEA1
@16 FFFDD3
@17 FFFD30
@18 FFFCC6
@19 FFFC9E
@1A FFFCBD
@1B FFFD1F
@1C FFFDBF
@1D FFFE90
@1E FFFF81
@1F 000080
@20 000176
@21 000252
@22 0002FF
@23 000370
@24 00039A
@25 00037A
@26 000311
@27 000266
@28 000188
@29 000087
@2A FFFF78
@2B FFFE71
@2C FFFD88
@2D FFFCCF
@2E FFFC57
@2F FFFC2A
@30 FFFC4C
@31 FFFCBD
@32 FFFD72
@33 FFFE5F
@34 FFFF70
@35 000091
@36 0001A8
@37 0002A1
@38 000365
@39 0003E5
@3A 000415
@3B 0003F0
@3C 000379
@3D 0002B8
@3E 0001BC
@3F 000099
