@00 FFFEAB
@01 FFFEBB
@02 FFFEE4
@03 FFFF25
@04 FFFF76
@05 FFFFD1
@06 00002F
@07 000088
@08 0000D5
@09 000110
@0A 000135
@0B 000140
@0C 000132
@0D 00010A
@0E 0000CE
@0F 000082
@10 00002C
@11 FFFFD4
@12 FFFF80
@13 FFFF37
@14 FFFF00
@15 FFFEDD
@16 FFFED3
@17 FFFEE0
@18 FFFF05
@19 FFFF3E
@1A FFFF85
@1B FFFFD6
@1C 00002A
@1D 000079
@1E 0000BD
@1F 0000F2
@20 000112
@21 00011C
@22 00010F
@23 0000ED
@24 0000B7
@25 000074
@26 000027
@27 FFFFD9
@28 FFFF8E
@29 FFFF4D
@2A FFFF1B
@2B FFFEFC
@2C FFFEF3
@2D FFFEFF
@2E FFFF20
@2F FFFF52
@30 FFFF92
@31 FFFFDB
@32 000025
@33 00006C
@34 0000AA
@35 0000D9
@36 0000F7
@37 000100
@38 0000F4
@39 0000D5
@3A 0000A5
@3B 000068
@3C 000024
@3D FFFFDD
@3E FFFF99
@3F FFFF5E
