@00 FFCFC8
@01 FFD577
@02 FFDEB0
@03 FFEABD
@04 FFF8AC
@05 000760
@06 0015A9
@07 00225B
@08 002C6A
@09 0032F9
@0A 003576
@0B 00339F
@0C 002D8C
@0D 0023AF
@0E 0016C8
@0F 0007DB
@10 FFF818
@11 FFE8C6
@12 FFDB25
@13 FFD058
@14 FFC94A
@15 FFC69A
@16 FFC88F
@17 FFCF11
@18 FFD9A7
@19 FFE783
@1A FFF78E
@1B 000881
@1C 0018FE
@1D 0027AC
@1E 003351
@1F 003AEF
@20 003DDA
@21 003BC3
@22 0034C4
@23 00295E
@24 001A6D
@25 00091E
@26 FFF6D1
@27 FFE4FF
@28 FFD520
@29 FFC884
@2A FFC041
@2B FFBD12
@2C FFBF4E
@2D FFC6DB
@2E FFD32E
@2F FFE35B
@30 FFF61D
@31 0009F7
@32 001D4F
@33 002E8F
@34 003C47
@35 00454A
@36 0048C8
@37 004664
@38 003E35
@39 0030D0
@3A 001F37
@3B 000AC8
@3C FFF522
@3D FFE003
@3E FFCD28
@3F FFBE23
