@00 000099
@01 0001BC
@02 0002B8
@03 000379
@04 0003F0
@05 000415
@06 0003E5
@07 000365
@08 0002A1
@09 0001A8
@0A 000091
@0B FFFF70
@0C FFFE5F
@0D FFFD72
@0E FFFCBD
@0F FFFC4C
@10 FFFC2A
@11 FFFC57
@12 FFFCCF
@13 FFFD88
@14 FFFE71
@15 FFFF78
@16 000087
@17 000188
@18 000266
@19 000311
@1A 00037A
@1B 00039A
@1C 000370
@1D 0002FF
@1E 000252
@1F 000176
@20 000080
@21 FFFF81
@22 FFFE90
@23 FFFDBF
@24 FFFD1F
@25 FFFCBD
@26 FFFC9E
@27 FFFCC6
@28 FFFD30
@29 FFFDD3
@2A FFFEA1
@2B FFFF88
@2C 000077
@2D 000159
@2E 00021D
@2F 0002B3
@30 000310
@31 00032C
@32 000306
@33 0002A3
@34 00020A
@35 000149
@36 000070
@37 FFFF90
@38 FFFEBC
@39 FFFE05
@3A FFFD78
@3B FFFD22
@3C FFFD07
@3D FFFD2A
@3E FFFD88
@3F FFFE17
