@00 000B04
@01 000A9E
@02 00095A
@03 000750
@04 0004A9
@05 00019B
@06 FFFE63
@07 FFFB46
@08 FFF885
@09 FFF658
@0A FFF4F0
@0B FFF46B
@0C FFF4D6
@0D FFF62B
@0E FFF850
@0F FFFB1A
@10 FFFE50
@11 0001B2
@12 0004F7
@13 0007DD
@14 000A26
@15 000BA1
@16 000C2C
@17 000BBC
@18 000A55
@19 000815
@1A 000526
@1B 0001C6
@1C FFFE38
@1D FFFAC8
@1E FFF7BC
@1F FFF556
@20 FFF3C8
@21 FFF336
@22 FFF3AC
@23 FFF525
@24 FFF783
@25 FFFA97
@26 FFFE23
@27 0001DF
@28 00057C
@29 0008AE
@2A 000B34
@2B 000CD5
@2C 000D6F
@2D 000CF3
@2E 000B67
@2F 0008EB
@30 0005AF
@31 0001F5
@32 FFFE09
@33 FFFA3E
@34 FFF6E2
@35 FFF43C
@36 FFF286
@37 FFF1E4
@38 FFF267
@39 FFF406
@3A FFF6A3
@3B FFFA09
@3C FFFDF2
@3D 000210
@3E 00060C
@3F 000993
